{"metadata": {"name": "johnny-step-360", "step": 360, "loss": 4.2626953125, "uuid": "c2cfd848-ae2d-446b-8bec-f6713f7a78a4", "description": "No description given.", "epoch": 1692171985.480448}, "tensor": "gASViX8AAAAAAACMDHRvcmNoLl91dGlsc5SMEl9yZWJ1aWxkX3RlbnNvcl92MpSTlCiMDXRvcmNoLnN0b3JhZ2WUjBBfbG9hZF9mcm9tX2J5dGVzlJOUQvx+AACAAooKbPycRvkgaqhQGS6AAk3pAy6AAn1xAChYEAAAAHByb3RvY29sX3ZlcnNpb25xAU3pA1gNAAAAbGl0dGxlX2VuZGlhbnECiFgKAAAAdHlwZV9zaXplc3EDfXEEKFgFAAAAc2hvcnRxBUsCWAMAAABpbnRxBksEWAQAAABsb25ncQdLBHV1LoACKFgHAAAAc3RvcmFnZXEAY3RvcmNoCkhhbGZTdG9yYWdlCnEBWA0AAAAxODU5OTQyMTYxMTIwcQJYBgAAAGN1ZGE6MHEDTQA/TnRxBFEugAJdcQBYDQAAADE4NTk5NDIxNjExMjBxAWEuAD8AAAAAAAC3r1Uv5iz3KRIv56iptTytvzCJqfuzYyeurIew+i6XJAysSi3lKx4pszC1LVYtUax2LLSn6yOxsPaqnDBgmS8jQDIlGFcxd64NtXgwAa57J2IsHK46r+It+ZvSqCCxZDCMIGmnYCaNqsgsQqIhsbewjjCbLUKlVaOsMYUwRzD1L/ykmiwIGdCxJTHZqCuwCykhNDAkXyzmqtyWFTNpLsMw2xvYKdWpEirMrvOoy7CiqSuvdClNK/AmRjHJqrAuhbG8qxcxZSxcqJgg/zL6sV2pryRhLdEuV7Ovr5irMy/qqYArLqP2rc+uvRc/ow2wzy7+IxOqhxuXqjcnUy+Bqa+wzTD1r16t4a6zKYwtuZikFwGsJrL3MHepma91MkozqKFOJd+zLjU+MF0qti0wriKnH619rCOkcKPvLH2zXjJlrCWxqSksL28tZKAtMeIrmTPQtEIsgS1Em5QnZCQYLd8tOyxxHvEtFDA/qAMtfahTrzOq2LB5Mm+qZCZfH7gnVi3JpAWtoKz0LVAwZTJ6Kkw0n6vOK7uxKSPpLr2lGi0CqZkuWqaUKaiwtKr9r34quRU9LhywTjDFoESqjTFOln2w/LQUrvYmAa49q6qmFq2dIz63+y6eKqoudrChrLKuhR4xLmUrailDKwG0kyzQreAtsa3+o5MztR/QLiMxLyXaraAxUC/eIF+w/asYsGIwkDHoLNSwuaprJHEr5DBrMDOtjy+AMgojWDGasdyx0qKgJHswe6gkIEcw6jBaLfcqUzHqrw8xCqUnLD+wby3gql0ypi5DqRuw6bMFrJ+x9i1fsUisiLFsJiEyYCyYMBSZ2SYvrG8nRTKkLUMlm69XsZKmmi9OL4Qps6qkLlgvLbGuLK6vshMeMUcvUq1BIPOyMqjtq52xUDH7pzs0GLEGMPMsjCkzM76wBrBbMWOx/avWrTQxkDNDLdirvK2PJ3KwKbOBrx4vmbH6rCwq/zDtLJOwdCJ1Lwut6COPJUil1THNqJilyrBNroaehTGFoW4sWy1wqWgwcSkcL+wr3SsoscckmS05q1kjUalTLoot76lHsRAtVywkJHinVCIJJ3afva9csQKwtSxOpm0hQ6nPr3UsB6yjsbckILNpJoOj2y93LO2i+DTmrWQwWCw1pBW066EkqW2svbDxrF8wCygrrmSsYSitLCSyPiwvJfEk7C2DJFUfMaSkrRauDSbJLHWwvLHPMfuuDqu2oPgrDK6WsPGre6crLYWkRy78sZa14jAhsOewkjJTLM8yGiQqo5yvsTAZrBQjdTFkpO2sFy4UMWsdiKyXLdizbCwzL9mv17HUpiazSC42s8kxciuJsj+xVzLqomotnqFtK4ms9bFFpCovg6rGBOOmuzADpTso37BaowqxOqrZMO6uNbCpKWk1dy3wLp2jjixfssEpaKfsLropA6liKXGsiCsuojCuSScMMIAzcK9xKaawyDDarPqvTKzOJ04wHDOWrkwvviy+rCSn+qv/qSIkRihjLHoytqx5qZCmSyoMIdWwnbPpnEWw5i9TLmUfhTGHsLatEid6MP6v+y1JpqWoyqrEpqwtvLBRoBOwxSbEM8+u9yWks6OoZCR3Mv2xTzEqHMcvDDAIsU0yPbBtKWaudLCAkb8rfJcNKT60QC2GrEImYy59r5Yh2KvBqjezH6/cMCOwfrApKQuuliXGKMMwgjFZodQulDHxs8aqUzICLjSi/ix7MTiqmqzZMf0vRqmWq3610Z74KO2vMyxSqd8p+6xmtIUn4af8JNcweq6DLXSioposn72eijHZLTGv6C/mMO4tXySCp0atAzFJK/QspRbMKV2zW6+KrrKq/qMHsvQXNLBSsC0v+K17qnQqa5N8raUcSLLLqSgyPCSbK5Irai30rEMxnDCZtCcmu7C/phSxWYi5qgarLbOfrBwyDrIds1arqCMKsfYjiDHyLbshcjL/K2gdCSpAsb6vH5oysLQs+CzCIIMvSRUeLWUx9TMgswsvgDCFsM0paLEfp8Iw9a3urAqxRq34KTUroLHVsDmoICF8LyyldypNLZGtHCiMJ1auH7IAs6qsJjItNSkyOS4NJKAX0zXhsGYhv7AysncsSCGtqJ2nE68qsIMyD7B3Kf4nq6SHNCcx1y46tLUtUi0+tSAh6CMAMe2sWqzVMWEwkzT9q22zCi7VLYyt5CgnHiEqL5rrLPWv2qtVKDoxpC6ZKEoxIiqnNWs1DC9LK0S0azQEKKGsWTDKMNEwtylYKbGw4jHsJQa1NS9SMDIolTGSMdaulrR5Nd+sU6gNrbwmGB9VH4Wi3SzLrfC1kq5/rCY1sqyitfanRCwFo6GxurJ6qeEuRKybJCC0WydhqKK0aC2gJh2utTWoL56uUykGMkWtAjSGpXEzgTRvsh0uh6S+rj4xNjLYJyuu8i3dtR+tBhjjnKI1ErGQsKSshi35KjmqbiWXpnWwyypIrqqvLa5StJusD6voKCewnDCxJxAgcrbcNBsudjHwte8yOTLrqQ0wwrCfsxksyDKCMriwZTFGnAWynKxnIAwy2ST4so+xTDJVLXayijErLys0IjFWKXelazPrKV4uX7IFsE2syLDfIrKrKLDpLiUoijB7pxW0FqdCsb0vkavkLtAdIyyLsDGkYKhzsG4o0yK4IVOxha4uqdMrhbQcqIuwm5ADrpgs6jBBrHQyuTGEjA2037H0MSot/yb0McisDLB8MRwy6TNVMCUwIy9JrWsq8DDXqhgwXqi5snIzyDVpstMvjjVXrdWwYS7oKPqv3qw8tYywMLGqoVk0/q3DJXmxVa6UM0C0j69wspgudC5Qs4QiJrOnnGw1cajFqJWzvhyHqsewZaj2Jzcxhqu9L/qnVisEpZufoDH+qJwwZCssMRs20zHtNJAwMagVKs0fhzXVtT4y1S9tNG+p37dftJclaywos3ovzKI+sg40WywLoZcxj69YMQ2t7i2fqTItsax6rXgiwbDBsJay760msJ0tPTBXJ2eyFS5MMdwk/LBOMKylELMWsEs0qjFIM3GpWayDM9gyqqHDoIQ0IzK6MZMrKaxOLoGiOyuAqoQnoCxWsOkgWJ1yr4myuC7EqhmxejD4q4IolTIpMhu0caxqqsC0bKx9HQmseDRFsxizPxz8sDksUy7FMBWxeTSasWg0JDDWKxquD7G4IbqnqbP/LgkulBgDsXg1WiBYMSS0Ta4nLpgvfLI4tNosNTDNM+6xYSt1KIWy5iQEqKwbPjPatDQq2yIXtMewQqwQKt2d6bSZLNauJy0xsBSwVrH5lQK2qymmp8iu2bIMFiiwDbBwrOIsMixdNAA04Z3dHHQqIDQnNui01rLKrV+sq6UVtXmx06mSL+YmhjFWqci0x6birTuzay5Bs9+p8rGxrX2h4jGNJnutprRxMEIpi7OJmlMuDakWsP4sAC8Rso8tgCu7rhglZjN/rBuxMTLpLSYvWzQYp1SvP6p5qhMwbrPks4Uy0y6iqgIsJjFarxmlHC4MNU0mAbUBMJaxQDTSMOgwB7O3r8+kUDIatOAfwS4ZqMkFiqQVLpSqZi8/Jrudn7JfseCqnyweotWsyy4AofsrFzEFKg2ppKn2qzMsDKdvMochybQ0LZ6vgi3sMLwwYa5wLdGsarHasyWumCpBpx8wLbTEJ42y3SgVoAaZFaqzIrczirIGtGQ0JSiJrM2sabACp5ao9ysBNjKwgDY8sSuw8KUNLfkrdDKiNOQoNDJ3LXwliKhZMPooZy+CNRe0R684saq0x7V1rFgsgzDVqjkyDjJ1rdUuVKzUqsoxKydKsSeycaWCskWyO7FHpfopVrB7MK4gpqkzL80ncK1nnyMshqUBLhWkCCgQsdy06ii2s6ixXxw5sRy11TMYpSC1CiMoMRWyB7DrqHAuPS1urRqwKqykL7uwlq2Rq1UoL7CWraozECW1LCMnT7C+sQo0TagRrEmwQC7HMZGogzSdNCgo6CvNruI2YhtDpsepbrBBsRkpLClVrIotYzMCt1YtnCVltQauLK/DMWQrQTG5MrEwkCwAMFQpjawmNc4vcSdPrAQ2djLNI+at4CuNpG4tRyVGtNYta7BPsvk0RzRxJTowBbCMLTm0vSKxIDyst6hHs1OrAp+FsoWwBqVIrMwpVTAHs5QxWapFsV8mTSr3qiglparWKhArfal/sscoSSxGqZkldJ9PqRapFCMMtUgjWC7NrZqw9KjjsBIqXKhNKdUj6q52nnSryilKqBOlpqgDLX+2X7LZMfOidiRdramwwimjLUIzNi8JLCK1wzPMMvYiipzUL8AoNaEtoGYoJDK0q2iw/i34LSctE7AFLT6skq+PMpcsVCiGr4cwRSzGMJch6axXrb0aUrHZrCItobIisgMt6K06sgOxpbG0IawvW6yQK76uWCw8KS6soCynKjenujGGo8Gvu6p1pz+uiS3/rWiwDzDIqkol7aepLkSdfK8EKwird638suol/S+AGDA1OCqDoYarxavtqp8wqSpxsGIvd6dPrDUdEbFVNPWrKbF5saKxU7HkoN+p25qAsGSp+DB9quqpMzCSIZSrP6pJMe+jrDIJsIGw7TO8qbW0WR04KDgvR62tLgmsSSh1rAcxRjUGLGKsibCUKNItSCRmJpEvd6xLqX6xHC1CLDCkd67HrWIwqauisEAlq65QsWUt2S/IGbQu0pu1rl6p9y7NpTcqRqVIpQ2wDCunsVyvVi9dqZuwQbDAqiUwVDG5rf2w9isvLyaxzbABKAIoxzEFMR6v96xpraMyCqfepuawn6asp5sufSpUqlisgKW9MTCsXjAiM0IrfzJqrrQtDKcyMXqvgau9sqOrVqxnqcatZjCpr7QtQbFlr2QyLbQLKKgtrSzgsUYqyiM8MGIrb6MOKVqw7y0MIoctSh0aKeWgtixGLqQxXSxuqlQlcDSnqjokIy6UIxEuqzE6Ld+oyqtIpMqubTTKFdOuoKfDsX6ulrRurSQqtiy2LNU0RCVhsDqvZiz+LHovhayUMaweiKidMr0oM7FTr40szKevqsoxibAUsBUwEiFnNO2j6Sw8MWKwCybZLUGq5bgSrKqteDDxrNovRanbLDqvXLCPsJUyKzK2qEWpxK7XpcOszSeqIR6weax3LCsuLS/AIKmaczRXMTkkjTD1J0cnlZ2Pq1guFikbrWwwihJ8rY0sRzFJsPcw4Y1CtekqaKIQsT2wSK1rLJynXqDXMSCs7qpQLEuwPSj8LlWekDF4svowZC1ZMBu0TKcqKYAtBiD2LYCt1KV4JjiwcS7DspyyLDBasIgrqTJ6sv6c85yIsdqoqjEcMa8sx7RVL94tH63KrOesrq6KtJWqs6XInIOmY67fJ+uhk6wAtNYsRTEVJrKpmrMnrhkpwDIVMumysKpAsHCkGC5GLGOsp6lpMAgq+StmtC+OTqlgmL2yOjTuLkyuWLILJEKwfy8ZsliwNrB0K8YtHzMuMwstmK1Ep0msYTEkMEQvtSdoLX6i3a6spRQzQq2bMNosWzSopIExobQtJ4Co8LC4iPknW6z2sDAuKjC7sHawDDKuMlaxMbObLGskdiedMVuuQqroDzOizjHOKGmwxCwssY8n45jvJAApSK1krkqsO7IlL/YunC93rCMrpZ+RqAYrE7F2qPQp8SmZsn+qECvWpxcvx6gfs7cuhKu8r0ao1KYuLGYjky4wHYAkpg0CLICkZKzTMEcrviAisOiyVKNuLnGpy7QorG2whbGWJqGk9bQILaWuCLLAMzYydLI8ME8obyfjJsIsXyyTMcYxsCm9LUqsGC5oJwwvjStTMsoyp6jnr9+vrSktnkcseDCEqt41J61qtjk0yqRcLfGrJCUqJaOvg7FfoIctx7R5rOYlAqpEr0kuErJqm04yUa2/KHcz9zB8KK0iBzBSsAI00i7DstWw/ysnMNYzXy7rLi8oWyJlLF6p0CgLsRqn/y55LmAuZa74rIWfByiyLH6zSq0hqQ8zMqopJCIsMSWvpRkv1SxRGSctszDjLXCrlCQlq4uzUh4zJnou7Rm7q3msMS0VsH8o5aQNmVco5zG5pmow9CoXLzuwd6xpp2OoCi9CpUEwbzIGrV8uRTKEKqMvcirpHG0xWbezr4CnibBurJabaqzRpjCqyq5/st4h0i3xJ1UuWi+Snymw8SwhrfCkLDGesh+vqyozMciyYy6/siyxBDBYrniodbDCteYuPLCEqCouTacyMHgkCi2jLuEkNiznsCsrgTHBr+ouwagUtWyoD6pDMTgrAy79MgGgCC9zMsW0S7DeI3Gw9S1csCWl1KnRo3eyOiirLAIwWrEpMdSuKy26LTc0ejApGoqvPDR3NAisWq1msuKycrHgpw6tyDGgLfIkYC8gsIsv1yTTrZElgLMENAYyoDA7Kw+sDy1BMRa1fq9yqSGvkbElLQusPqajtiOrbavhLTeoMLJxLkQvli7jL1GxdyoRri6y4i0srDCvujBWnx21eK0PsSOsSifbLn6t0jL7niuwjiojqB6wWqMbsJslIScrsi+o0bC7sdIxsywoKXKswyzUrKso0CnArRUtwKk4rfCotS4FsYqxhCL4qyi0WCs0MHws+TKfI6UtJDKDIVAwY6zSLGwsQx4kmUqnYDV8MqqwqzHnsAEes7C2EtSjoS0kMG6w2zEUKCWqjS4+LeKu7a6AMeImCCfkrIszha4HLN8uFbQIKyMwHzMUsX2tVzB3ppunnjFGsaAyH7ATLdgsFaaIMUmr/qkcMzwrd7BSNNqqqK9XLI60wbDTIJCwJrNiqzawVKzJpB6tAyyhrA2smClTLmYynaUZMcmwuam8Kv4wmis1rrerIK2BrRMvDKt4J14mGyw+rOYiF5vONOSpCDTLLyuqoS2nM9+sw6x9MhWmuCOHrWseAzSkMGUy26IlsE0soaeRobMv3iwVpnEusLJgKFwwvLASo9iuyq6fMh00vJkHLc4ftxn3M+wlk7B0GlgtwTLHMMGwdjPWLcAv1DFJNPypQLI5n322SzFmMpEyfyr8r3C09bJVsg0wOS8wsuytNDThsDus8K3nr3ssSa+psLCmYzCmrFytxKlvL04ttrHQI7MlcKlOspkssq6Oq1swSqrNsWKkO6BVLIWsRrXPrgmwpSzhrMSvcKi2MbgwjLFSLPczKDK5ImY0FqUqpvanHbHcsfuwcipCLSQv6Kh1sG0pTzBcMtYw/y7xpRIyCTK7M12yVrKIMLcuATC6q16k4rFmI6wpMSgTtewm6izrLactq6rEpJ6wASgjqCovG7GSKcsrC6MENP4pPi9bMZEr/iuiIzW0C6ArLCSwcDJ4n74xXK1tMVqrCDBjrtiyd6VxsR6g7TEOs3OxxyemMWoi6iwSMaMtZrQ/KbwsuCr1rr+twLK9GkemEK6qJbu0e6omMIyo3iNIsY0v9jCcnM0myq/CLz4wtjOkMwu0ZrRsLTCubjBNrncvv7VjLMSr6CyXKu+r8TPRsPKy/i/kMb4verEFp3UmRDCTqAElwrA7q1QvPbHHKmYp3LDarVwwXa2Tp4YvTKwSML4r5yYNqvkrR7QHJawxdjIPM4Ev/SxAMa+vNjPlJRoqoymzs4enEB2xsLmpEC5/MrqgsK4yKte0vKvZqEqxfKiQrIyv4SmMpQSwmKynrqgr1CKGsksrri8jrKAsQ7L4rSMoiaO5MlczOKmmrSozGKw+M+isFq+vr56oxSsDKvgvsK29re0sfTG7MQ0o8RwuKMawvB3BrbcmXy5pqlikFC/3HySvISF2rMKfzaKULfyrr7bRsKUtIa6gJCyxT7DPrqiyvStMI+Uw2iwULS6stSpbMI8xyieIMpKsUSwUE/ylp7O3MGWpzC3QKJeuayS1IWSrHaoqKFcyhDM4KCWxyyfvHColPikqrr2oKS5qp8ecTaj2JA4hHa6TJII0wiVkpVqwGq9uJggpHKk4sVoxvDDmF8cZbi+QLRgqUqeesbmwITQ7sKMux568q9oo4qbfsI6ZtC44s7Grp61KKUqqRDDvKty1lS0uMI8tLrTWLaMzEy7irwU0Ga3srJIxiqxlqmuwnCn9MGGyOTEVMQCy961LrlM1syrxsYetSK+kqNisEjHYMA8k8S8jsd+wpqjyMoGwaC6upL0z1Z9qMSanOKaEs3ouEpwiqT4lTao4NPyrnKwCs22sFhkprvmpsy+CsBIznbIDtI8pr65ELSSxHCvmHC0eTTIzsAK0hyYBs9Kx0irWpuIv0LHIrZau/C1cr00oqjXfr4wyKjLlsqSpwTJaJeqyyKqVrjCq3RyfoLcoEy12MDYyEC0YtbGlDbBoF2sr+inFMvwkBy1FoaoxJTEpJBqyoSN0sgMhgyeBLTyvGjAsKB8liSgVs0At/bCMnqw1rLF5saKrNzbAtB20qSdzMfoi+ipzK1MjkDFtLeglzbKDsKCy1SN5LceyrK+UNXGmvqyVI5Iw3zEUr+8r8y8DLKImKaFRMjctRSm1sW+yQTN3K/IwKbIFrgUvhaW2LnQoAqlhpiAwITQiswCtuKwuL/ovsrLarRG1RrS9sVWv+Sx4M76wQi+RqFgozyYzNPqkBSDYtrEpjCMbLNI1Y7DEs+yvmLAFsJ8p/Ky2KYuycrFXLm0qMzO7KXUslrauIJWy3alnME6p9LD5MXOzzjE3oEMwBq74rAE0dBvSrggucDE/seqwcB1lrFqxiSz7sSuhcbF4ogctEikHqU2uJixLNJqr1qhZK3OgP7Byp7M1n7XBMFssia6OqXCkoSxGsY0v3TDfpx4s0y/trT0objA8KDsyVC5DNBqbeDFwra62IK9aLvCx/y66MHAzECt7Mrmw5rG6sI8x6zB1sQ6oBq7yKmQr3DCHKgKlGjDjJyecNrGcrXQwAK8AoyOqDK9xs4sxHbEZp5sgMKrBLNokJbAeMyUwwTWAKhoo0SghLjuzvjKSL7ww1ikhqfuh1SlBMpSkDh0UrTgxJy6yq8wy+bHysfowJS6GqqQdfDENGE6oUjFHsL+jnyiusHuwFSt1LD+1AK82nOsgMzQbrcWqATIWLM6t5zEbnamu9i6VM7WyBDUysy6m5iVyssGojLhJrTsxlBzksPawjDDaJ8SqKy0ZKOIhZSjUrrWksjE5LwovSbEfsUS0LCu1LnAtlrSVLOcumbFItOMkGDOWMlal5yrHpg8uG7Oisbuv6DFwsK4uEyrZr3sYiqx7LRg1azFrLpegN6quL4IyoS5drvklliA4KEe05avmK0C06jDXKvOn+SeGsrQY8jBnLAKySLOKNJ0xN7D8rScowrQ1rpKx9y5LsWO1CTLosFSvnazdiS+ou6DkLAOxDrJGL1gsbLN2LYCm/CrsrBg1eTBULTe0yLD5MGirk6uQqkA1L7UzKLkpEK9vsWOyLzGesIuvwy3btKyp+C7ts4ciGDbOKKGljLT8K7gszC4NKWUwLqVqrscv9jEsrRi0jrJzLIGw6a0DrEcvLKw9KK00mS7Osq+urjKeNUK1LiyLNEwxcrQms30pFi3zKsQiPTSINkYvbLO6Iimz6jLqMnctpqp5raCppTHDsEgtCTD0sm2qD7P3KyEtMai/m8809SlDtLikyK65rH0l0K0vMBAwFqG4JfwwYDPyMIIwcSxQsjUiYCwqsAanpqriopanizT+HWmm3aHCNZKtlDFfn2ulDy2gMoCwJ6+5J5guyzBCsYe2YjJSrXMvGjWKsyQt5CE9NMUwkK9mLSAzvzBmncwwfbE6tEOxibJIq4UvmTLtJqKqDTUDtfebvjTMrTyjMC5XtE+wIyx3J8Ep0S3OKscwsbEGprGwBCHArECoxTFWK3qzqaHzMUYmWLMQLM0lea2gsFy0+yduqIcnkbFgNRcrWqJ7r7OupbC5L/urITFqNIqtiplZtGUhhzGqrV+myi65KOusNDHqM9CzqC0DKr6udTMIMzUcQi65sMEys63LJmWsmy5cMdayiDA0JIowBbITqNaoZq9WsQixw7GbrqKqv6xcrGWmNKk7qioiuy8QK9cqCSafEQKznKrdJDSwXSSwqJoyoTRwMJOuEpkJKritJqqBIXg0cDO9IyAskxjzJailbrDlG48zwTGSqa8076/3tnUxrC1usn6oKhzmrMSr3bIErGSzaaiBK1UyvDMUsU+uFBpxsDwh1TA+JNCkWKqELDIuox3+pEsvuCkCsMQywihrqR60QS4uJMoqwqklsC8yZqgBJGgybjAaoICqrzDUtBsx+qitp6ibPLHps0ewCSi7LuMs5ai0piOtOTChst4xJRzjtmCw3ykhs/Is3jKHLawqXbDqr26rES6qM5szqCu5MecwsLIzLcGx9SW5rPA0OjBhGyMrzzR4KZSqxaA8tSoyNDEZrFMfprEcrky0uCziMXecxCygsGew5zPKHKssqykWrUa1/asiM+QqkCs3rQ6ubiBBsfs1M7QdqjuyPjn9sW6wjCVtGPesJrHCpL2kCjVKtH4yjDH6K+ayC6IdrZIouKvCNewt0iEzL8MrgTF1qwqhwKwCLEGuLq10rGMwmynRtIitEq3otBOykrKoMBAvTCxOMEWt+SX2MFAwZiy2shejRTFtNCOsqCwxsC8lHzEzMAYrxyE5Hh0s2atVMfuoPzDur5Mria5fthauzyRkqSw2TbEerOu1kLAMrGCwnSMULN2xPa2UKwqprDSRsN2wgrN2smyv7av3FV8qDjHqKJ6vvTIkMPsoPChErWIrrizlMkMpoyuWJPioBzJrs+ywHrFNLm6xwDVXKGalKqvqLI6uZC9dqX6vlTLkLi+rlDSJKVQlWrDtL1artLToqwawpypDGOYmDyl6Locscy1/sOSsMjIMNREhdiqQK16s6Cm8M5eqsZ5iMMShnaETqIYw75yEqgS2USuQLYcwJCkjLHCpaiORJY+zHa19KSIt6pzPKLikqCy6MF8wXq0LpfelMSsosogzMq0yrkAtWrLorhgoeq7gNMQmCzactlW03CHqMb+u7aGEMZwZz7JDLUsvPi5fMKUsM7E8sW8uCbAwLGsqk54IJK0vCSm4rtmymCUgKY4s+bNJIRKwhSVWq2cqOyxGLz4udqwurpIwaC1WqQStOTPlMNgt7THvrCqt1LBMqeCrji2FMK0zmy+nn20kn7ZHp8Mx3ijvsVux0a+XsFct07BBKL4lcjBDss8WDCb4rryuVbCLqJIw9TGTMvovm7GSr7S1zCsCrxYjwi42KQwfbyOxLu+tDLKgIPMlRTLqMECxijThLgOwdi14qKQ1uDEoH58rIbEIKpmc/TGIMF0zfK/PKjkpnrPhqEK12C/FooSolKkjr2mpWLSfpu+ZRrBZr20wTigmLEqhAq4HLgS3sC6lsOaVkZ/dtCcyOiWuoWcke6TDJx6ptCokMIeqsSwJMFycUTE/raixfC+Msh20vSq5LPuyD64YtGKkSizELp2tqrK5NFGyhbEIsqWo0yhctU8s5zJsMNYtF63hM+umQLFWLN6iBrFar2Qkl5x3roQyGisxLPquMSdBNKyuRDEgr3ytA7F/rrKyCAyvs6szDzR3NWa196gbGr+t7SUnNQUqv6pMrJ6pLK3YLvmsF6p4sR6zjivwsYKu6axPsIexeTJbI2QzUCPgMCMW/LNxLLYu+K1Os+Ix/KDmrO2dyammMUMw+y8NrdMoyqa+pFsuqzFTLh+p1hrGsDu0PDBvp6sv/yzTruSqgyFvq8MojzPGM7SsviVDrTAggSmzqb8ufbQOhKQqwi9Rs06aCy0VLqqdKyw+sIIray3eKTEsALG1LSowgqwlLCgdMKF5mvuwULCrpfOU2S7XMFMRGjDWrwMiza+epIqWry+9rS20kqwBJzcubTCgIK8fzZ3TNAKpW61cNRev7TRGLdaspawXLy4ssbADLtijlS8UMCgwWbCALfMdfrCKMIavuirbrKssCSZqK86uQzXzMEurgaUbsuwxySuEIMuyoSzIK0ixsrEELtS0xbD3Mdenni2/Jr0wBqixrc4qtij8sBSoISS+rUexZ6UZre4q27OTLtwtTKU3MJOpG7LimHCwcLIWKSksey0rMN2t/6XaMWEpbbYbsPetEjXQM3Kr3S7IMKSv962ULwuzYLC1tMsowK14LQ4wFLL5Kmki4qwaJwAxibKTqXwxACtoLJstzDBHL001QC9orSwpBKhYKKCrAzRTK6m1e6wCIEk016EaL1AmCKlGMB+j3C0nJe0kLC3nMQ6v8K5jqCeoFqvkqkAoSrAYrvwmpzJpoXgyFZgILYQeOx+lrWQwJa79Mpu1eCwYq8Ot3CarKvWodrMVrwGsGKHprPUo7ShprveySzIVMYcs5K6Dsx8oHy/rr4AoAykgLFKo0i49qrkt36nqsOIpTDYMLqUvgKtbssEtrqNALHSzbayetHGxgq2dLvw0XqAUtTCsYi8Zqokwt7KNIY8jrhuvsD6wmDIRNTusjSwisUotzJjrLHKzURuGJRYsryeEs6Cv2bGNsIo0fbAes+m30jKCqmKtuDU1Iuwejq18sMWdbjWhMsuuk61QMwQw8ikeM4erP7NpNKIsyylUL82wY67Mrv0qDCgRqJEyCDL3rm+e0CZatDurJK3/rWAxjbGHqf4xxypwLrsu3SQtLFoxUCivr1wm/CFBMDwx1rHZrb8kjrYSKhqlpCwCnKCwOzEtsVspOTLZMu2wYyt9tuMt2bCorGA0DLGcpZ2zWSaFqMml0CzILBuozLErs96sRrMHrVsvty9psJuza6bxKkW08DG/rzYl4jRTn7YplKM/r2Y0KjFPrHuu/jQAKTWtKDQkLTUTE63kJcssyy6Oo2Gz4a3es00wWy0CnE8yCpgrMb2m6TLRr6Apfy2Xpw6vSibAqzQsc6l3sTYuRDJntJMpCSlmrfUnQy20J4MucKhItFWpazI5MamqIav9rtksdS3VKC6wSrUfsGGzUyYBNBMpeS3pK50spbBssGaznqw1LkOtBy6LNN+vzjJ/qkAxN6rPIaUksLLmpwwyuJ/GrQ0pujJSroyq4C9+prghdDTDrxkuRCzdM0euMCu8q2m0pq1pqOacJ7J0sKMt3i1/KMgsV6wCNNSpuq0OLCw01bAvs6UuPLFKMBUtCqC+JJ6ynbR1LAWxaC0vs12qPigYrVKsfjMBNE8rEqiPtM+tYjLqKQ6v+aGHq+oksi/WMdap/x9LrgS0lLHqKWqwkC/DMSOnOCGzsr+toC/uMYQz3bB5rQMwKqcMqLWk6yfJpNO0GK8CtMQqW6k5rnUy9S+lLuQx6C0JKGcxZyr1KG0oIbQDph6fczAILyWuXymOsLcwFK2ZNAA0STFVK9QpLLA0oPGtfChSL5cwgzDTsMmyvjNtrNYwvi4Apzux+yx1rpMocDRmnXot1rH7pSohHa5ysNmyLayZMnwtWbTHszos+6m4nRwwEDD4plwjxKnaqXywvZf1LImkQBVwIr4sNDKANI+myyz/qRu0l6v3LRckMCW9L7mkvK97oP+v5S7ULuuwtSpyrEU3BqrPtH6sl7T/qUoq/i/EMC6uXK8tMZYw1yz/reuyraFQsu2saysYNIOrNqpiLFyz2jTXMYEwsCgSMmyxwTK9LYqtNTTWND20YStBKVQu2aSwMbynjLKJoSUuFC3YKcejVrK1MrGyvDC7MUCyKzBgrGWpIzXPrcUwsC1qtMwksbE8FFoprq/2p/gxZCw/ri0mcrJEsQqtcLH6pxApN7WiLfMuyzGir7QlhjFErBwvQC7nMq2tKrAHqLS0q6moqOWuBDAbMkMwLa65JtyyB6xqNHswrK6esS4wATSksx8k7jBQKrwhH6kxMX+vGLK9tNMsKK8LrfuoaBwhMRY0QS4LMYAqcy+VJOwnQDXmLXG0vKw0NHq4sKj2LLOSV6l6rGUonK1vp+IeYDLhMkCw7y2YL3awVqxKMVqoyjWXr+exArIFrVYpprTDKEMvfSxWMS8xqTKPMdSvRLFRLAcwAigsL+Cu6aJ3IVuvzi3JMzS2D7DBFgcokiZvIl+lKDTrKESxKClOLzuop7KKMCYw0amXKmGl4yt7qGgy3Kr7sC2tiCm3Mie0YCQQqZg0s7a6sQKwrCwjNo8un5fmqvGpsa8rndCaNLSOFVKqOS9KsXwz2bEbqPSweimasESs2qqbJoGqqbAnrVmy+KQ/rZEsY7LOp9KwDSgTtYOoPZ3VLaOuV7ILNFgynK5qMng0Oa5DLqg1v7DUqFcXz6dHs2IwLCvpNGiygSGkrawvHbBXrA6wcrKksMImczDoMa2scC7LLQgwgDGNpyWz1Z2vLnozfbGrMPwp/zIZJ3s1zzJZrisyyCxsMves2LSdNrgwNrTmrpArdCX8L/0tj7F4tFIzu5tCMeOoKDA+Kumx2DPlMLSob7HNs5cktTCeJZOi7K/8LBuskjDxMx+kmqW/If8rgKriL4arMrDwrUiu3aGHsG+ydC9UMWUqHKdlqAs0M59YtUKtkSwAtkC1QTR4r74y5y3dL7UyQCFdMnCxI7DDKPYwerLDIy2vfLQuqdixYqNRM4StkrR+LIMvLzDksLixYjAEqHisPykDslMs6a4FKDUxATQXsTswbLTiLwWtrag+rOMtdaUdLo+rAB0kK2KwcjTJqs2qXSfGJvQoiyr2n6IpnqcOtMYoiyEWLJooDbMSM+2tCDTjqAgs/y9jtHGsjC/grgguczAPNEAiWbIgK/SdjDJWlL+gNC6VIJcouyxwL60ygLFKF2UvQa6npnWsVCgBKv4zeC2XscmtnynJomwlGrB0IYCytyrgJzKxzDGlsEmsgC2vqaiwDKe8sG6vHDC+MGOlrjGxLnMyyjTJqLOxoax5KGItNS8ppIEy0KsYrYmyA6+XphowjK2ALSCt9i4CKOSYdyxAL1cylCvaJs6sKDIEK4U0LbCsrmihJTGbMCQm57JKJ4KuFTR2I8Mu4S4Ns3qYbjGFpd6vZaXrK02qBapCMtuvJ6xAtL4vyJG9M1UuW61VJluxByXCpPEkQ7KkMDSkBjChIRu07is9sXWrjKw8MVEebizHMdYxYLDisFk0VTKdroI0paJ9KGoviy1SsVGpC6vkM/AxES49qHywvq0cKsiuIi70KaOyaKyOrjGuiK/LK1QyULXRs+Af1rCqsbasCyToq+Gq56zynrqybZxFqggtOx1pKFqwGzLtnSktsypnM0QqZTBGqCKjdjGQsFuuGjLXsOsnRDLerbCmjCnLrHSxCDExLEWp1KO/rXKy4LierZmwW7BSqg0y6iocrTopOKybJguqMjKZL2yjeC7FJi4tOqr9KDgytTEpr6otYjDWsiAxPbDYr4+txR4WMjAzvDNkMmwovbEurRC0+C9NpPcu36fyMGoyzp0TMcUu+jGjmtMnbrLZspitcTLmrXmw9a5EE+UwjS6nNLKqcS5EMXUm26ULK3ak+SQJL9Kx2S1Er5SmSi2gr0ofwjFXJYGyey1tsTupPxcZq48xHi60NEqs8axdr0YtX7IrLnmnCqcALZeuK7L2q1Ixs5QlrA+0Y7MVqOCwdy+wtLyuLSFhLMKsTbEEsoGyVq4Cra0xiDFnrg6sEictKB6n/DCXGxgsBbMLMOmg8StjsTWsJ6p8M7OlaywBtGsx4SzBsHi1MjM+qOereawzrp8sqSwVs5YyHTRFLdeuZSRgrcUgGSb1sGQtI6e5okyoXSkVLSGvWCRDtiuz6C+oLo+zAywPL7KqXjCRraUjJJhZsWsk7a3bLucrr628H3kv2jGkKJAj7yxxtEQw16/epDewbbESL3cqrTWMrCSyXLJyqgEexCjRpRyvM6zJrgIvMTIvsPcs67JWNLss5yZRrxmvcDO5ojIx2K3VJDcklTArqoYx2K4LJM0sNqjHLGoplKxdq7YvGrMiMXirza8PLY+yvi31L5IoZCyFJ9wqUSkbrNOkSjDGMNKevyOcq96yqywRsN8l0CkwLFkk/iSII+0o26f+rRQnvyxkKqwkdDVPr+EuKDH7oW6m+rDOsJiseB0lsfGwKKmELCwq469iLzMvIrFzIZowRKtdLNugr63SMkStIbFuMCcv+C8sJCmtoix3qZupGCflJPGulxyzKYikiSlLrvmeAbDUoIEp3iziGTWlVqvbrNWucizUIIcsVLAJqwurJLBjqGmrhCPHrLIxYrM+sZMwWClMMOyy2K3yrxWxoyxzsJ6ukjSsIneiXCNFss2sPyc4seWuQKhlIkSpNCpeLNcnCinbL2MwCzQqM/qre7Gwqwo01y4arCEwpi9yMf0wVyiMqeowGrFKseohQa7eKhq03TF/qM40Aqg2rg+phSv3rXIuJTLOIPwoRi3FHz2oSi2QKyyxFa0RJGYsUiTCGE6oPDEbsmwueDBDKwycJiSRJYCnWK9osBswpCULrUupBrS3riKsX6+zshAkninxpz6qgKzplf2toDTGskyvWrCQswmxzawMMKcwiDJOpwErhzTkrpMp+SyQMfowliryLi2vYDEmLDSqATQ7pX8r3S1Vrkupza8vMpIheC0ltUOtvix6r7GrjLUTNUoyPKdjq6MxFSx5sDGzaa0jM/ctwqgUKbWw8y7MqS+w/Cf+sKAvH7GeLSU02rDoszK1ITH1rJGyRDCvLtAwzyUmL24omjKLoq2zOSbnrT2yWjR1LlWw8a03NDGuEDBIM2ksQStKMVUwX687tDyqs61Mn3Gu96j1tKytzLGdLI4tr7IRsHAvsCGXMKQrOS1qKRwhszAhMFMuTzCqqlqyC7V0K3OxAS2FLN2lCio5s/I1q6Q/qrqwFDVbLEwwMTBEtpCwXSokLAE0uylJMbOvIbHfLC2pnq33KaooZ6wkMUIqJ6UuMDEuuy7NrVGznS1IsaKt6q4sMtCqQjJ8JfctxyhsKH+uvyrDnykpRDWiNmYvLa0nsKKxtqp6Kg6uNTEIL6MpE65YLxWp1SCxs3gufRyVo8AxpR1RLNMoNKyQIL80tZpjsfS2x7H9ISsuRKqAKXalE6x0s2Qr26exL08xNzNrrU+yCTMzMhKxQbGYor6yc7JhMpIn/zM/IrCwT7R5q/wwT6hwKfIqWa/cLySvTTOBqFOwUikUqpSmEyXuLGcxb7BdKGyyOK9esyYtDKzYJVCtDbAcKXEoma2QsEQULzQNsIWwf52PMCWyz63oqjYp76XwLeajmKDUMKitnC0FrfSpYLBlod+wFDCAsfkvfyG2MjOsGaw6sXapNRaFLYYvojREsey0nCiLKJasf6F9pt8ruTEirVSxky0rrUSw/jHhrHWzzLDkrbQoqzWcsT+tETDKoY8wR7ZUsIGisjDyJiqtNK4rqrcodzNCpn4pTLLhJ/kwMbMiLuMtnLBipVSy+aGENIstEqoIr76rXTBgM2SuKzADMB0uVjNAq1quv7IBraI0+jCbpUY0IqK/qgosTyUXqOczfDH1MVUqtq8WLjatUiaSLgIvkShzJJOx5azaLAC17DMDqMUgXirNrWCscaierRebIrDIrSik07HbsY8kfiZqsb2sFzTssUWthpyVmEYtZbFlKX8bYSpXK9qx5C9pMBKgLy8ar2WuODKvsGAqpzXwsFS0saf5tN6tiazMrUK1jqx6puKwya36MZqyObAhLZ2uFSrwsycv3CoIM6GoE64WLjkpsbSkIXQuxR0eqm4wg6LhtAktJ60FK1G1RC+krd2xfC4FNVw2PCS8sFenjTD9qqCzjjSYNJ6zta2Mpwua3CmsL0Etv62gsbUpWCv2mEesNqjGnzuzCjQUKT412qxnshoi4S4uMDio9q78tRevUrAMLcQxgx+erK2s4qyRtTInOy26rLqVhjRrKkWyaC6KLBMyQjC/IkegpTAVsKUWsamFMHswRKwRr52fba1MruEtYKzFNI0tkigjMPuubiziNN0tCLFFtCMoIzAJrk00AKKer0IkiLCQNk2uKSsHK9gwjrGkHnAwWy26Jh2wxSRYsE0tYipYKqcnjqwTMagvoxeTLjWvPamaH4SpCanJrfowXTEnLy+pq6/asXMzLzCDMMGu1bCTLhWtkjQZmk6whhw1L7Iy/bSdMx+pITCMsOijVTV9K+G0jI0mMou2DazcLMEkn6PVMKQQTTTDMjOyjikwMSwrc6I4M20oMCy+IososTGfKm2zkbC4JmkznidXGJAhARvVqgkvqbBbMNe1v61uL1iwD6yJnm4pPK6lM/it7bKZKS0qDbBcsfgxrrD/sIYutDBRMpksAysWsu8uBa2FtOixzSXOrn+Xt7EXMPCu3awWrKqwjbCrrG4lTi85tNIm0Q2XLRAukbHHLUWzs6adLwkzxJ+ZMLKmoaQ8LmAzhzAiLCIySCIcGAaqeLHUs3m0CyxNrT40eKwfrUaso7HKrCw2yi+WLaOiaTP+sMisJa4bK18eo6jBLsMyMJlUrH6yCTAnpDQuqywntBExayonp000ubBFLTypkjAarxmuC67WHBKqoSVLtTw0ubMLNKCp4SpppgMpwyjgqb+rzC6HteGuaCunsHoti6xhqiqwHC5nsOktO6QOrCkwODAumiKddKWAKboqlzGnLvwxfK+mLYsmNi1AnISxNDOltf0jvy/NsXIuUq2arWWlB62GL+WwT6V5sEWpPDP/L80wvC3fFNSw7qUtLfct0TEhr40s4hqooBmsiygfqAKs7i8AtCcrZ6EjHdAl8yNXKNUoFTTiol4wpjAmLxaypC8ypP6sBbLhrZOzJSGSsC4twalHpLQwwq7BIPaqYS8orD0vrCkRtWmuIDBdLHWzl7LvqlCuXR65qY0qrhnCsVSvQjFoKeEpeTI0r9YmuLDwLb0uw6woJu2mBykYJ6Q0YCukIy6qESRvq6OoTSaHMeIkgSZeMHQ0SK+DMhmzSqyFrtWuIqc/J4gr/qD2I0qnTjOxrCivS7CnLPKwzLLRLOes2ZynL0YkzDEusXwxSaqgJ5wsmLHKMDgo0yqeMMYvESDcqckiwSxaLl6uq7DZrSmv66h7IfAw9izRpSMtRTBsMCEybCSeIR0yDLG0r0ymySsyrjGvnjD+pGuqZ6w3K4msczIJrpGvY6ayMDYqO623JjMswan/K4e0/bCprCOoD6g/sGomyy++rlW1mK7RsXOv3yw3MbGlxLHPrT6ygasfp1wpZhw8qlIwQqpjmJ8xGbGaMJgxbrEdri4jzayvLVOsSIV4qRSunLBwsPYqKK73rAgsPSR8MV2xB7VdLMksCzHHLKqOjyx5Jusx0TEGsBSp17N6LS2pRyxGprcvvi/iLMCyAzDWq1EtAKt7r3sxFLGsqZsEhDDSJkAtrKr+rXGlAjBQsQOvVSYRLo2tPTL6MBCtNbHcJFCw+y7ILJg0WTDArq8p9bIHM1Mxp6+xqoiwxqacrzqwQrCaqsgupbKXL2Iuu7QUscOqyKdqrNYnATCzKKwy86m7ry40hS2AJkMyIy64Jo2pGC2ctHOidrHIpDwxzzHjrbupqyOYswqeC6tis4erVTLSLjcs5rBirCSt3azIsLswZq11LOesH6iwKXUxUy96pjAzuC8prSIxHrNnsEitBDTGK86oYyW0rTgwWTABrCWz05APsT6wBapCsm6sRjLNrM2ppp11Emgv6jQvLauqlLTqLwOph67zJPMhdy5Zr0y0lbRisFomY6lCKWYqxDEjK+iwiquzqPSxgyw6MUUzH6uOKukwq63hrdqvHalMLGSxpq8nMBIoAihjrF2zk7C5r8IvbKnQMsEs2qHqGoWwwqtBtEevRCY1MJopfTB4qKOwTTH+rtAqySwjr1MuRqQ9LUMxL6+PJy4yPCigr2ev+SpOJCGzVjIls/aoFiQ+MmKoKDLMrEysVq74rRusj7BbKl8x2rDkr7Wc0S3qqrMn7awKrzoobjFyMFkngKenLV4zwy1oKGurXK8XryKwnrPyLNeq4C7ZrVAoKjNqsAQhcJDNMBoyBDD3HYIn/DFBrPWwkaqerh+u8S/rqscf5qzfL1Uwkyk7MWyvEzG2KgwokLLqsjufO57qIymuAiYEsB8wyyteIKwaPTEfJ+cqiq3GrZKttSnbLaqqdi/Cn0Ev9itzJtCscSwfqxGsfjC/LtKzey2FLyIxLS0RqQAtlS29nBguHLA+M2oiJ6kTrtAXJDEMp2OfXCecqY8qDCLbmpitoi5lI9YpUzBgMe6q2DAmJYUszDEYrSCn+jMeobMiVacdLQ2xHrWZobQhSrBlsWUvT6giMGEw1iG/LKsyxCx6I6OxxbCfq7gejbFjqGeBQ635qByspatFsGcvt6+TH/kqU7JaqmYw7y43L4ItdS/CqtOtQjDXqhgwVabbqk+sdDA1rWGxBLCaM8UigrH6LR+mwC3GMqgflqvmJT+j9p2+ImYzzCreKAUuMLBBMBgw0KKxLgUjI7DYK6Ksl6VQKwKvGqpkoeszMSXbLGSoV7HLmeCslq7YrrWsWzKVqyGqZSgeMAKyLylcMi0roa01shEgeLDuKzIukis3Ij2w1TBeJs8znzNELGahRbDbrWqqHq24Lmcyj7Dur2+zuCp/LQEjHRP1JXOx+SlcrbWvkCKztt+wu62CND+srapJruqu4CxdLyKrtquzMrQyxarOLCowBSo/MEutJCy1nPexka24J9iqExmALMItGDALtY6sEynelW6w0Kg/sQEtMDAzMgSwXKxiqDquPDCmLOysVLCmtA62nqeiMdWwViY/KkavPjOuqgczYSaGL8+l7y3ar1Kxsp3ysLAwrSR5rLms3zLRrFKtOCgQJE8sP6jqM9UqzrF/MjKvlSxFL/CdhCywLjGtUyZSsCcwoq5MrJkwO7CMtY21H6zTLpKl1bFCtKsw5zD5JNSx8rEgqv8pCg9eJQQn1jJloeev/SV/sXenvy9iJuiuCaGHMGouIDAvMYokE6EqLOYzei6+s/Qo2jABMZI0cyiGq/i097D0LrCx0TF8q6cwNKcBs2MsZK1eKPWtzixiM6iwrK5yM3MwKC4pMHUsBDS2L5at96hHL4+ZaqT2JSouGizlrOgvGTbKLXSzdq1utFczcTEMpAgwHrTWH38zbhUiJnMxwjD/NPAtzi5ErpcydifssEIvqSuQKIotWS1ernQtDp3TLXooBKq5sNyvgbC2Mfqm2i7BnC6qvqltqngl37UkrCCuVy5SL64p/axxsZK2uzBWLe+u8iwKMaUnmitasbizB7KJsp8w/ywLqL+wVDScLYgxjjBvKIyrDbBzJ2kx8yXQKMYx/y2ZHT8r5TFXI2QfyTLLr0QucCi7MSew9Z8FoHWkZjEhpzEyezXELEe0FrAjpKGtU6xyLLStHyyJsQAtZifZrR4t/aj4p38yejBKrkQvIrEGqN0tpCYesN6ov6jrKuexdy0kHgU1xpE5KcqwszEXMuqqhC2eFFohFS0CsXYsv6kbsL8o17ZdrXIwIqWTpCuoBS3hrjuvsqV5JGevATQdrRsZVSrErCGzpqjaqQWjxqd3KKWrWjFAsHumf6h/rZWtLyV8LCsxAaIJMXanFrJFpOewmDJuqq6u66nUrPkvOax4MYcyPDI0Mjqp2rBPrT4ukTAUrRuqKSwdr2G0B7PoLzcuGzIdoyuzQTFHsdczuaaoKV0wVq1IoOiL0jATsy8yxqtbp+Aqj6vWsB+mOywXoc8onKn9L5swVSuMLLQuVa/tHpOrHysHn6OuPYiOsuunqaeoqH60QK/Ypj+2+SIXJEikl6Z5rUGsz6QFKlSxY6+fo+yilqLaskqk766mrJOuEKfPI06hBKy4rDopyikWrnWuqzByLDIwJCh3GAMX5Sh/rqCwiLH7qEou3aygpUQncqOmspWvezG6Mi6ytDQpMD6v564zsT6xq7FBqLqgzTBjrT4wJrHdIgCzPTSVME6gALA9s8MtFTKGrFspgbLDsQcYOqNdME4wPZx8KH8x/KhGL0gxdjGdmCiuNzFCrGAxfyqwLqYwjCzbo6svPLRkr/EhBrIQr3+i76mWrJetQbGXKxCxtqlQMJIsJihirKstry8MJ++u4rJAKbEocDKbJcwYazO0ADCoNS/vKaUusLTgInqt8q7/Ktes0TExrtYzpyQpLuipaKsKKuCxyxxOKZGx2bHQr7WyEbDVKi+ouKVkrPkwnjBcrocqEiCUJGykm6pELMOwni0isWatKjOlKm80jK8nKI2wcbLFL2ElEa67sAMt6SxjroOuwShjr1+nFrAdqeQlViptMGstJSSiMPOsritGLC2s5yYPLlUxfDF8LVU0TKWbLEmsQrS3s2AyhSutLsAx2aRTs0A2/y2xLzGy/qxRMPanp7E+sPcuSLT2I7kxVqsYKACppKlhKdWme7OsKo8rqqngICkoyhz+KT4qH7J6ry600S9krZsd9K4Irs+oYiFeLCOU8yvssGooibKLsmcuZLMbLok06bDxLiUuZxsWsEUzdKwyKXAwCyr5sHsz0qX4Lw6weSxcrhyjdS19ps4pAizvqV8kabD1LOWpL69XrKMvfKuVK1MxDS4ZovEsx7KrKggxmbT5LdMtITL0LuQw0KyNKCMzR6LUsqkxTC2Nq1sxYCgPMDGwD6YxrCKwmS44LgUzfic8sbua7ySusoywiS6gKP+ptSvCshQwAKsWs04xu65ZKBwylCEYq6QsfS2qLeUx+qV5LgQwriwbMdArQC00rSodOSl4oootcqtEnlss9K2qMnywKaQptWggsLDyrSks7yDUpAMc3jMVLNqrmqz1pZm0QKlKrF4v8y6VpjOzkzQSLbQxdTF/sXEqaTGcrmc1gbBqqp+wnDUFtJ+wF6pnLrohWahzsSowbS55H8Us/DWqo4svNSkdMmWxDa+pNcawrCyGn9QrXp8GrRAwMqiCrhYu4yyTLhOvVKxZrvGwebHbMj6nRrCqrow1M660Mt2iDiDpKv4qb6kCK7EpVarlMHqySqw/LhQjvCzxH2irxjAkt0yscq1MtEUtijJJLX2ykDLntYesubRmslstSDX3Iw2zqTI9sBgsXiSEMjwwD642rnWr27PonFUybLIHsh+pB6sBLPKwyqsbME2vkjXOMMco0S/JK+EkPywApS+hvDKjJ9yvia3tqkwzZiiRrcOvNTBCLyesKq19K9oleRVyrlkwkzAPM3cySjB5NH8xhK9IL0CkHbJFr5augS/QNFkmGSFQKokogq8LrVIqrq/FJKUpvTP/KUUwZaz0r3mlyqx7NrS0Nq3TLGoxlLJ7rEq3k60Ls92s6K0RsDimri2tLY8uLrPLMxulLbCgseSvvTAGsPcXtSyOnhmpD6FcsC8x6rHHKKUr5qQ/tDgyJjB1tdawpjU8IRwxsbKQK/uufKVtIXkzCzHZra0ygjODrNgwdi2asGsmjrTgrRAvoLJMtHgwwK9Zs0wtujECLk6xbzCcKuauritPL7iusLBuscUtsScRsUM1vizhqrY0xyXYo9K0lDKwJGWZmSY3qbqvkTR3jWIwOiu3MseyyrJTMxUwxy2dtqMfeKqDNMStIavMqtqWfzXlJQ8vEC71pvSh1yRRLdAx8ayzMR8sjjWsqcQupSvLsKuypqyIoIcstS3oslStG7lTs+iuwzJQqiIk1Shtsl6tTqwgMMs01jFqpk6p4a2hMC+mJjCnsCUwBCDrswEdBTQVK5gsoy1hswAzuKhhskEh9TNRLOMxjrBQoIeuVzaysDumdzF1NOSwdTRAtUcvfbT/IvcxWTAIppgo0qYVrXKs1jEIqoQz7bQAM/8x/Sy+sb6tcCQHMjC0m6POsL0vkS3SKk+qDS1cMaWo5iiOs9Sw1y4kMxeug6ZutNAyhqgVq9uv1i9qLYsgdrNRNeqoZLFRsRolYbSorfarIKJ4GZWsM6CiJ7uxI61Grkky5q0rNLszIrMWuJeyPzUMNRK1+DPMpDsxTy0NMKg1Ia0nsCukya3uGjougTKRLO+yqy+ppLmxJLAesXemSTMyMWwxwiltpA40yZnqKD8xUDDIKvGje7I1sNKp3qz3swivw69otQ+t4rRNnWkujDcMLs+zia2qrNwqCapLsEKtoDLuqxy0vC+gsBosRyT1L3UxX7NzqrKtrKXgq72sBq92sPGbBjDEpXW1Y7DbNKYsB7FYrTElja7CsUWvxKqRMdqttS7EleAoPrFctt0zlK5XLt+oqCcko6mrR6TDKtOzIq1utuyuBrAMs0ApPCsCMk6vCLBYuBYt0zSFKaWxrrJjNgm0ADR7rIwowzCFLXOw+rXhrNyiPyxcMZ4rq6jqHMq3hyQGM9CtCDFOoVerJ6kzKF8kvTBCNOCkyi60tJwyC68asZAzjDNnHUmr17KhM+Kx9SpjMH6sky9BpAUw8qyzs9o03R0WnlOxdikUrhCy+K3Jq5Q0+K0eLeGyOrakqZ6ybzB2JZCnDLPysPIxmrP4qToi9i7XsL6mlC+ZL8ixSS3zMESkLKhnERym9DDsrUKoa7NLrUmuDDLgqPUX+Ka2Mzeqeq0rJVOyE6jCrb4wdCzUMKcyuy5LsHU2frKNLDOvyjAvsWwvyC/VMwuuPzMinUswFzGLI9uinLLzs+wzyC31sACxkS32sfU0nzAkMSYoBbbGMx+llynsLzUwmDCmoJY0MTBhMoWqibFVnwY0lC2fJ102Ua+WsGKpgjAptJMwpLRTtGypPSi+NkAxX69JMPiv6CoRp3ctCzJgtM6j8aheKMIwga7Bsj0xjDOfp28lPyrUrgwpuioOoyOhsikPNLswLi5aL7Ew/qyrp3mwV7FvqdawU6idtRUxXrQLrcwsRSJJjtCokDRYrMix5ayELqKrazTDGKcrGi8xtGu0fCekMf+ovSr1paesazHqqWijXSuHnIymJDBKsCivp7JCI/Oj/64fLlUknjTErl2tvy3uMZGvg62GrUCtZrC4qMcvaCBfKNcvqjIqsECutLLfKgExHC3BL9gkmy6DstguS68DsL6oMbMtML8wazHpIzSyfzGXqFOyWyj7ME0r65piLS+sDqukLpcwEy36pI8ui6LFNIulL6nXGdkyVymrsfQzyis3MJ0npTCvsJI1hqo7rOKx+h2YsK2qeTEZmyQuByBtqBglDKxmJcuguzEupNyqvjAwpC+t6rA5rGcnjDIjMMag/S6WKKClpI0IrrAjmi32oy2wMKlHNmG08a+QtKssKq5zl/GoODBktDKvL6absTGtPKroKR+pKyFxrKqgnaTCLFYwQyzqr0+nryXlsJUpayker5ktpyv/qzwvq6o4sOkwjLKLKu20VaodMm4tz7GGL0wxQCptKcEp3SGXoOC08qX1rcYtY61CMlwZ4R8QKsgfwi4drdmp2TAxsHQxSC5ZKPUxparsrIOv5a1orh8olKfBrXixPy8ZqxqiXaaCsCEx2agmsB6vqy72MeysHqpKMlMu6ieipo0sJ6wSrZqlYLMUrEwvKakhs9+yky6ksmUwhKtpNFIxfCtJqYGt6S3pJpCrBixNlbMxLKnHoEoskylPsFovDjHxMCUaJC1Vs3knXzKQKIuyfzJ8q9Is9CzFsMOlYyrdpQOnD7gvrqGqcajmoeArfyR4MA8Day1AMW0s5CD4sZ4xbTKdsD2y4S+VM6AtrDJIsZIVFbX+sr6wCaxAKE8jkjB8LpktwTGomsEpVLH4sjguEjSiqzCs9yU/svYt57HgsG6gWjK+qmSsr7MQp44ot5jnsn2sLSdZsEQxSrLgsGkqNyxWJYSrp7HDHeIvqjNqr+cpCy0NrNgkh60fqG0wz67tLUivvasOsZQwH7G7JmAvSycGrjgnJjFWr2Arm7BcGZwwtK1FKaYs/au/KzgrOS6hLG20YyxLLaGxZ7K1qlMwsLPxLSyy/rIgsCyy8TFhLyCzqjDdGoMlAi25LuokBqkjMBq2aK9ZMp+pJBz/rZ4wtKv/sD4p1a0WJfKy27BkLSAsgRprrZMxC7GXMYErAyswp3qlSDKFquAg+TEipW8uzDJdrvIh7azjsAezCzDgsFKt/7HMsI2z7Sz8qIMu8TKXL2ewGjNlq9Gl9CmAMvYuHKxhMNgudKzWKYcv5SnsMT6YXCsiLCOu7K4CsygkKKy9LD80dS+hrwKxwqfrMlK0xyzdLKczOrITmacoay68sDgbma3bMFmsZSwasUazbDEBKlitja6gLACt+zBTLY+bHjOJsRkuVDNtLpysjq6Vrwyp7qvrsUkvlirVnq4zkS8SsDqrkjASoFmtUjE6NM6ocS23tG6uoKt5qYOygynsrG6s5a8cprizryh2tBIsobCALPmwCywUNKqsqy0zsAevq6eyrMEmFbBsML2vATAuLyEvvCkxLHAq4S7MrkmtcqKlpXSxPCIJMR4sDS/BMK2rYigxLseuJywhNP0ypja8LNcyPrEvrA2wBSVRKVal+BwGsEywaC/rMS4zWKn3LYomfSb3G6Kupq+4rUktL7R0MPgtxKy2rUcxdaX/J1SvTKqoozMtPSAKrUOsZ6c8skStQC1tJnivYjKDox4zlrFwLIIv3LFCqH0uUbC3oIQcN636M6yvNrN9qdYqKKwiM0ShqrF/oC0y3TGOqNah4S0PNFswSZ/5rrerDzQWL26xbLB5MRexNS+apZg2d6yQsmObT6GnKFCsZa3xq4eo1DF5JJyp16t9qrCqQLO8pG4xA6pms6In16xgMSgtvDT/svCqepwBrJoqUSD9pWcoPiorrGyzoCjNKDatlyGIsHQwIS57s4ovSqw0sncuhZiDr20x+ygUt7KuXqZLL0gXTKzOtNGovDWLrkmoeC74srkwqSPisUWrMaoVrI2wTy3Xp0KpBihUDHi2U7EOpXusqKAOtUiuQqynoTIz1y0EsXEyNSsjqV0q9SrIN2GwHrTfrues9i/8ruKwVyx2rfmuoDM4J6yp5rBIqmU2kC7eKqSwcDKCscgufDCKLRgu8rDeJH4vzzEvKUUiTbHgsYa1Xa57NuOyEbNMNrOiUKwqLMOsPzWxIBgsPTUErXyoOqtDq5Qvdyr3scKvBSdFK+cspLMVN7Sk4iyYqW4yKzD5LIStOS8MFZEp/zFOqBOwo69poyywvoyPF0UwKaxxLBSy0rKFrQI1XClXMHqoN6kouV60X6BjL0E1IzUYtf6wObLhMUgp4aeHHzys5C2VsBouhjGqrpEmjrLJrv2y/bG/NPWnbDFSDp8qBDC+L8M0O7GfL5KvYy2+NNIsVS2mqB6dpSzFl3ewLCYHJUUm8iZMLlIbbbVsqQwhrzA6qt0vnh+wJGAmzTQhL10xkarNMdMra7B/tYumUbBiKaC04ywPqFwzUyiuriaxczF4qbMtaqmUpH606yfmLTCkxbAkMv2x8qiJrGwsJSlvMzm1LqyhKxazHbGYLo+rSp1UtBwf55JZt58tzLC/rw6weyvbGsks0q2jLZ4wGTHIrrepsLVPsXYzLzI5spixArLjrUmsgDb5s+wwVq8MMESwXa+8rtSwwDKprTwwravssmAvo6IALjsp1SxCp9ev6C49rDg1pjAzLZEwia3nJpYnAbAmL+Mwf7PGpWowUKk4rni0JDQTK4ov6y2iri6xkDCaNCEyLDIJMbWvdiv6qW+wpjMxqpQx6qYgKdgvFrV0KMCf1iVqnbqsujIyMJwYcbHRJgYxsS7Irvoke50bK5OocK6+rwcoLZwUqo21ra5nsE4k6yTKr9SwajBirhSs9CJHsfWqTbTvsXGqnjH4KCSxri+5KK6dFKNnrbs1CjH8MI8qbK1fKQqw76ShItOx+q73LZCtmaLKKjMxBTFmrlko1zBWLY6srCuKK6Ul7qjvKlEnBaz8q6up2i7cLsYu4a06sVSyIiEmtGOyXa3UsK4sBjGfrRs00q1wLhKwqTQGMUIvDDKJLDqtPyoJqGS0prJdqS2yEzFaql6oaSzSLkqmNKu3Limx5Sr8HJElS7Bqtsww8Sg5Luet9YwMqAqyT7AALvSv57DGLbMuw6xfoCesFrRVNLas1bAEMlsxBi0SLrwmSSknqDKeKLK7qeamZDLpNoi1XKmKIwkrjSigtPsq8C58MWSicza1r0euua5vMFazPDC1MlYnibFTl1yyrTFiLAoykTBUsoCstS50rs8wba1dqzIiky7nLdYq4y+dLNOtKioDseMsCrA0qwk1Ci/Do50l37FYKOUtPylcLAqkhi/YGCqsGCwtqrYswDTLKFErdZ1cn/wwOazUqJckhLPBqkEgKy5RM/8ocy4Rp9SorSycIvIsZCE0KrQrryW9MMauwSyALX2xMTLjrCEx/DBVK1CtfDFSsM40ni5lq4SrjK6+KQYoB7DUruyqHKjFrLglejD3sL2vAadWLdarUSx2rDM1IzIiqdcqzaiFrC8uxLS4MtApQ646pvGof7DIMdKzWixqsBcwEKweJG4sIylur+8qby+3MCKwZrQkMmwJ5bDrrlYqpTQipEYt5apnMyq1Z7GiKYopKS90MDowOyMXK3oxSiDtM76w1Kl2Ne2qUBtjMcob+LhlLvwRELH+KEcuRKy7MWMrArAvs/UwgKz8MzEu0Sxzshsx2C6Fsgq0hqTzNEAtHbDosvOpAiGYKlCWG6/kLHOuqyEiss0uliaksTKeqTFZMgopt65epwwzuawDMe817i2EsIA0QBrYqomuACXPNI+VDqfnKjusMqjZo00uiC++LEmwfiY0rBytszLdsS0obK9Es2Gs+i94rMc0WBiiLhozWSd0Jskuj7Ewpv80LKpPrpkpZ6rIquip2TAgK2kt6LMosYE0Sy6oru4w8CuhsNWx9a+RpxygoSY6of8kSSzzqX2wAjMqszuolrQLLmOwGrFrswmylaxVqyUonTH6rgIu5CvOLBIzmrLBro+saqD9JmmsMjHasXUrqKffqHIsQC0VtUIo1KlQrf+t2yj3L98xcTIRtRwtZyw8GbetyKIXMJ0r9K9VKSuyuTI7Kw2po60VnVShG6h0K5UyATMzKky0ajSIIoGx8C8wsLQx/rFbM/OZKTIOqtuw8TJ1r2OvnDCYq/MYArA0MowtHrKtL80mCjWbshYxzyYvMgigITFCsg0okKwUtXGqaigkKmYobbK/Kcoh7CHVqwevcDA/sCaw8CeqMOIsrS0VsrYfSyw8sbqlvCx0LaqsOTSlMt2xQ6iOGlc04Sh3Mn4tbzCatNGwE7Svq0I0AxtaLbGunDLIKAMtjymSJqqxTKi1sSytG6s/r+UlCbJqs/qwXi22oNWeE6xNLvAvNjFYrAIzOSrBLx4rsqwwMPYskzQGK6YuIrI+MAKw+Kx1qjozTDAkrvAkyjL9MGSmQAnwKXendjSxKQIw5C/uq+gybShpsXSmZaqeoWYtcjHBMAswnCt0rMCwfbEorJyuHaPIMJ8zrDMloYspeaTkMoYoIa6yKdqjRij0qt0sXqfvqOawTDAQsR8pSCjasWkkC62ppH8e5rU8MLmsfqE6pDYvFyv8oIAwzjACtFWlUa8ztMYyK67zIrivCK3Yra6liC6FsDy1UzI7sx0s7SqlK9mxWSs/o5exrzTqmsGk1SeBLaitgStBrkUmb6zirCwrebQCtDQsnK9YsPivZqxcsU6YorKCsDEoFbBwsJCxxTBEJtUwzZ5uKFI1KzQWslcp+TE0q4iz4jGdKuGvoqgLr0+xnDJxp7yq/axwqmAtQ7RkKIUsGih7sh+e7jGDKBenba3RIHWr/ywaLECp7SeuMIyr7bBKr5UibiysLH2uqaaGtP2s1C/UsgyqSiwiMU2vqa1arA2o47NbJBE04jAkMD8uNLL7LZYtHS4eqP4xgTHALfcxwaxEK32x9aRvLo+zIqOaKf2hma8pM3GyPS3hMm6trqwwr9AxpKSlLCmy3rEANHeqkjC2qe0wyi0cp86jpzAXskapFbAqsI2pGzQLrRQteLBCroosIp5bMBQuOLDvMFk2NSptrdwuwSjoKk20HqferIsdEq+nqyCtXjNMKW2xojCwMBKzYTErHRoUcjKnsogsizCYrDaplijkLIKfcbJxLeY0HyL6qsQjNin0KFuyYK7srXaolC0RrsqpHTE1M3ierrChLxMotCyIsSetFDSpMxiy/LBCLZwsyymXsGMqda/gsBWs6SDMJCew3i5RLj+zBzDrLkirArTCK4Ouni8Rr2QwsqsotC4xIrLIr1IwMa17rsexXa8Mq/+vBqx+J7msC66CsaMuwSnCKzop6TEFrQotg7WoJToxfCxqqMKj2rUAJwwuOzPhsZCsSC22NICs9bHJKuyuIKl8LKUu1q+MsCKqDi4Br0muSDEBsEAsZyLIrCoroqlxqEorHLU+Mwe0nKmPJTkygjCkLQ4wyTFip66h1iqGoD2wzCKRGIisBytjtGgsLjHnqOidF62OLOgvdaY8MGExqDBXLUYxjq41MHSryiuIrDa1XjBEplguXrQarnUthbKsrR2sQbABNPuthicLrZ8sHTFCMsKvgCETLBstX6mjMok0tzEnsKAxJ7Dvs4GwhyUJNEKxZLAatJWltTJQKB6h1S6kp2MxvbHSsuyfUCQdMdOo3ypeLMmwoixnrfssVa0YLcMvrahbLIenea3vsv6kvCw5HvMtESy7LU8Zli0oqIGqX6hFqzWw1yyDNDerfTGtM4koqiedMBOtNbAGJOamdbSao3OrniJpJIsygjUDKlGyeatsqtEzAjBOGqEvxawPqI0wVizmtPsdSjErLV2vL7AypTSof7ZDJcgwkrEGHuCmjKhtrH2rpqytKxUwx656r2SraTG8MGo0sTFSLgEv8zERK4QsSzKZrPUqVCecL16xj5+eMxcyJzBkJ6mspKmZsJMwVzB0s4avt7I6tOCiXbT2LIatgqp5ro+kRS5frDOpPCu3tfCx3bGlsKwyKKzhKxOxtS/PpgerGK1QIj41sbCNsJGuXSsUE2KvlijlrGw0qavbLBssxrPao2OpCrBrtQQxGSyEs0Sw9bGGMtmmYK0dq1+1wiikLpux/6vgp8Awi7ECpuSu265hmH+iYKhXrvixR7PpnEIxri4DrqOw8y+dNB8yE6E8JYo1mh0Iq5MxkDVhKNoupq+nMBmsairbMGUvCbBJMYoq6jKqr+Qw5jATK+WxUy7vpFOuFao1J3CsMKhMs5Ug2y4JqZ4teLLdJC2pDbAbKM8s0au7suAyhDH8JOcoTS0kLWInhizEs+ovA7TqIl2VFCaIsSmwCDTTLXKs/TD/Mxi03jHJs5yt6y57qvQyTaRyrga4UBsTo26n9yecra0p4C3XqIssjrG6qVuz9a66Mlqzbi7jMaalKy55nD4mFTLJMSExJbCfqRgdVygCLzGuJjCvNEUs1rOcFzqhubICteCsM622MJmpL7E9tM6x+iUFsp2yfzO9M+wyQrE7rlQWQajQsYAt6C6RJU009DAHsAqw4BpFMM+wRaUxqWw0f6raMRik16pfrsCva64upwgxIqJxnAInyCmerLWx+ywZLi6zSzJZLi4uYbLJNPewfqoJsF2fbzIKryoym55hps0mwjKyHX0vWzQDsdalH7BctPow/LGdpW4trSqqsI4kuS2+qSY1HzF/pn4uWLBXLKuv3iUvrI4sMTDeLrszcLKdrEOrKCtCtHQxX68kKdkXOylVstgs3LARMN8uqLJtMMOsvxwjJoUqQbDurzuilZiKLeIwZTPOq2AlHinOMfcwgjNkLy4wkzJFMjuqR6gDsD6m+TCXtKyn7y08rGe0TbfCsOugja4zrGI0FykRMbakdCVyMOEVdjGnqQAw46UzsX4rwywQtJsaIrFnsVUwk6kZrT6K2in0LwooHywotAEu8CQqMHEixrG0q9E0fjJ8EhkwWKzjMb0qCKMiJgMxpzFxJdooCbELNJ2wSDJRMTWmWaGhKGmzwCT4MIe1ijJzH/eug63rrD0yrKI6pl2vnCRSsa+tmTKrIGQutadQMIcsILABsSkxu6TrpRWwbS3ir3Yup7R6L6AupTJFMFix5ZgdNesxh6pYq+UsFy4uNCG06hoypXWkQS5uroas9a5SF0GpQra3snyyHCtbsS8rZCgysnE1oqj5r/ml4qg2L62vlKksML0xL6VQq+axOqzMnqMdRa3CrCMqHqwutGCyICYDsJUszywAIM2tYTI0LIcwrzDxMSuxsaq5rS6u8DIMNrSwHbJEKpAxjig3Mm2uorPhr3ezuzILq0iroa2nqbEwbjFdsWEvr7BFoSksYSpyNHsy56b8M3GsvDE/L0GR+bCspledp6LGs/cnNjCuKw01qjO6J8wvS7RsLGIy361IqoQqQTP0Ijaf8i4hpWMpRibLMewxRrGRMXux3S6NJ+0qubNbtd2s1TA9sW8v/SXBMFCuBTQnM0KxCKsaJG60c7IvNRgiwi+ttUo0yip8s1KsfK6rpRgrpC3qMtKuHDFas9qtfKZ4shYwUjDgqgezurFzMXEtOS6sKnIxwDb9LCInJi70q6mwAbZKLyUuzSrDqjywE7PyLIEtTaQCr4awKS52NP+wIjISLtEoejEPq6msTBvcpPCxzRxLMlopHzAsLhgt+LTLLiSqFjVoI/etiiyuMH6sjqaBp4IudzFEs5azgK/msXAwlic0sogp76jmMrevATARKSevoLTkLYarqrQQKEKrObIsJ32ymLPLrdAYlSRUr/6yTi/TtGQwRTItLlOyoyuCrOkNiiyPMJMiJ7PTMbawSjVQMDYtbbWyIIchsTNGsg0j7i5CkpuqarG3Js4yZbL+qaswdTOcpk40Jy/VqKexkCz9sD4jBy0ZLKyx7C4Sp4Q1k6hoLLCvgLFIr5ewiyhasCKm5w4CLf0rpivhotYquyo3LlUwILBfrkitdSx8LMYq76gPrSooIDCoriigOCsfMYqxxq8LtLmqkiAvK9ApbCR0sEM0czRrJJGssqtwMbao1DGDLgUz+zLetC+mRi2Ysaqxsy5IrWGmm7DWok4zvKOvlgkzQy2Nr3UyEqngMrWyghd2scGv/aLpsAcj8i9aMEAqSy8RtSgtKiu9rwmtxjDMK8mu2isDsvurvCnXLv2sErL9MtWwrjMEIz+zbTC0sG208C1fqBYt36Rxr2suQi5OMbG1BzL+KMozn7MFLkqpsSqArZuvXC1xMGSsZC+WLP6sVq5eqUWrf7PzLG8zMykap9YxAC5pstaq866PJn2pJqMjKTCoA7GirtAuyakbL/Cpx7Brs6Eu361QqOMqTpwFLBqn0i/otPEyZq5LLxwuGzADsaQucy99rIEp96qyMq2x/rB3poIzw55qsaSjnK53JnWxfy/cMEA1NjFvq6yuPSIwMtotADCJqYSsyS3ZoDixI7SKLiouJDXJIxayia7IL++Ss6wbsiwoxi/6LXauFay0qlE0AalYMb6xQC8atHStCbQDLLCz1azcqFmi/q7zqjwQ46inKI2nyyx6NA4rBCAXIFKqeCm2sFirYC4pIswxoqvmMYgyeq2bsQkgrCo6tMivaS5TqesswbF2q9iw1qkcrwKlziepqGG0h7J3r24tsqxYlKWo6LYXrSOw6TGaM/eZdR0OKIau+SnYrD21bLTyJjEzPDKGsj+ohjM1G88h/CxYsU0sW6ogsZkkI6l8sW+xCDIps1ExvCn+IHOzZywtrLWxACOQMRKx+iwlIwEgNzGoJUslWyhQLnGukDN5sBevVi5xsSikMLD5rDQ0fKlYoISlzzLdJiIvPzEFMTksBDA4Gxs0PTHXs7Sp7C38sMOplC3ErhOoQzQ+LWmZiTJGLtAusq7VMEEpIzEhquEirTK4tPEsN7QSLqgsZ7RSL16tlTFLrCUxIDA1JH2x1iy5MDa0H6nzLXGqFK6csPSxVa//r/cycaVmricxIizPnvSw/yndM9gcGTF0LUwsdbdKrPWs4TF/rd2wgzC7qrsvlqwer6stfjEHr2UsMrN+KfEvrLRNMYSx2CKJKz0pki+BNIKvMzJ7tcatbiqJtSMoSDF7Ls4wS6aWsrqtiKkOIh6q6iYPnpWqqTMUtzStPjILL1en+ChHKKspNCQXrjip9CsqNIcv+wNAmJ6wZ6v8pioyNDD2Mk60GDKfKg6qKrIts1YyfTGlqiGrR6KzsfuwbSZmrVStgDZTrNwyFLDJJgmtciK9rDAkUbRBq3GpRrSSJQWylKYGKnypxTD/sZ6ufyP1n1e03y1IKXYna6zLL6caTy1/MjssDTBPKSCvcCqILKI0oSsNrJOkfCl1o28w+imKMJ+xSLEDsMGyXC6oru4wayccMfqwzzPYLfYwVKNWLWEocyZOMncyga3ytGcy7a/WKP0qYyAvK/GqmKQtMjoy4K3RLNIz+DLBnvss8K8VqJ2u4a1fKNwwCKPCrUwpfDVGrZAxkrOyLhUxv6qqLdQwpZWuK0KyBbSYLnO0oTFJJPIvga93sSQzLTBYsGisqzHuJK4qkrEHMcsvhzPqJaCxZa0gMIotLa0dq8KpBywkMXgl4Sz5MDstbiEfq58ro7J6LkwsVDI0KhC1wi4NLFCwr52+rW6v+x0Vmumw2ahCsSOxybBysCuwLLfTHDYwUrAOLO6unK4ps5EekK7rqF8xEC8WKk8ttK4OKismXrQJNCssTDSIr/KsFTCPrjmrrDC0MCAxnTDirU206awpLSA04adKqc6objDCrtCxVJEQK6IwZzE1sTetzKfRsOKsI6k3r14xdbAHMA4wfCoLsEQxyrEvtTQwv7DuqgytpqFFM+8skbGfMD+zXSL6KKys465kLi0qg6ZmsO2gbq79rjUroasQMMumHSztoPUscSkCMsMo56NWLK8wWjF6qwwyb7AQM3Y6Sy3zsXCuBqYWscArVy0MMCWs0TA5IOI2WLFQMi+varCysCOxsLDlMZys56AztcovIB6XsZI0qCn+LCofNyzmLW8zBrSDMv40QDACLSKF054IL3AxZynKLDeqZaxJrRCsXbJ3JzQZNqRxszqxnrOsqc+xuaNNrIamHC7BqpEtTTCNtKsq7q1dLfSg4ainqMosHa1Oq0mvkTA1sms02a6YqIkxT6F2q3gsbqrLMbKjLS3Qs5GplTGwJlGkZbC1tYsx/zS2omiuSCAXpGCpTqr1pwO0eS5BqmKwMTMKsnAvF7IpL7Ox7SzfLcWuNCxpKhep1ysxLZmwYa1nsUmoKTQtLAuzISypqNEwY7FEM92gbyxQLL+vTzH+rpgp0a7lKLktbbL8sRWwRK7iK+SxSzNcIrMbZRmJqmilp67ZsVcvZKTFrAMtxZ/tsHY1FbBIrD4kB6Znqmow/yQJrb0u4DPfsdsoviNLMtIeK6SAsTWmvSymKYCpxzPLrHowdCdisUav9bBjGi4s4q6ONXCwLS4uqSYt6yxMLEiwFLTcNOitYDLiHEiuAyP8KlYvDC8VKJaxSi3cKK6pGrB+MNgo0yugLrstQjTdscYwWLBKK4yySSRTMF6pTTARLGItCSXjLNGn2i6Urk4t861qsKijday5sXEy/zICrYE0/CoeMiyxXCjPqdMzfLVQsF8v4KrfMaec7SYosVYp66ixnTSubjBvrl+pRDNssFGvpy4arHeqaCvaLHgyj6wWqgmtCa1mqmYyLaLIr0iwMaJGoxSmNDJvM3sz1zALKfqtSbR2scandS+yH0iu1SwLoNyndqOUrlethDMgJqUqviMAsiaskCTVshit5iMJMCgoGrJeMFwtvqxzL4awJ6osLlCwAyvtrACqsKwLsYaowDJbqk4wHS9Ur6cueTDkrxM0jKDXHqYpATCkLeutBDT9MagwaymiLvauICVbMM+kG68uLU2s7TKLKzOtjDKsK3uy+DLNMjqt2q1psDex4i4CMHwsta2GLUOxr7TYoUYxYjF7sqCfnCUKr1OtIig8FVav1iFlpUAyaC+GMOcuCp45KSSowqo0sQ8w4K69raoyBSsMFWCkIjK5K1yqTyZXLeolObfQKGAuFjS8HIAsc6YgrDcxBrB3MCKwMDIir0AnxK62oxKuRTKzLSqt9RxjJ2axxyuVtKQh1jE6tGQp3ixHLAOoIbP8KA+ts7A/LHKs4is9IR+wTKE0qbIlWKzvtHAxUbFprTkV96pBLp0kY6P5GQOpwSnLMF4tgbTCMhIc0ymeJAm0iRu5sEe0nSrWL7wcIDHAs40x/6sdJlGmdLRjLYawNzCgLj6kniuvMFKidbBNMOuyW60dHYyula5SnsCthykCrmyjG6uQqF0vAjERIZop8ydwK4urrbE+sgkuM7J4qIwqIrOKsBkp2zASs3EuZ7JQrZwwijDxsdSwOaGiKiuk/qzasDyw+TO1sjOzgjN7LjGwjaVbsDQjkDNpsSWwWq2WLyutbi5mLXQzr7LNLxWqIK2xJ0UsmKcQqQkxKzCuJimptaVSLUk0hS7JK4Osw6t1pc6r2bE2JHEurS4OnDOuTidSsAWwGSiwMDCsgbG+L8evDzF8LYWohLEjKncjGzIFJL0r3iklp3EsAq34sV2l/TIlqJ8RHrQKL8s0bq5EL/OssiBfH0aifjFfKVisq6owq9aqvS/mocytyjFBpuQwYKnQIyQvfSKGsI2Y+yqCpY4y5g+kLNetEaxjJa4poqsQsJ6uVTMHoz2tILVaJIKx3anAK/Wwjic3LWGT0azNK3UliKefryGyQS/9LI2tLqRdNAksEJ1OIdcvhLK2MR0iiS4NMCMxuK5cMB4nUyN+pcwzLC4SK8OiG7BYrf8uyqo5KaspjCPuK+qxby+/p+qooKyyLdesua1JsjCudq8zrLkr1LLeqaouFzHBr2OyTSFGqJ2hBK8QsISsIq3DMrQur64ZMFuvBLRbMk8sKCpaLHIyvqJyLGavLjBBsWewU6ZSqwisQShxsGYw8DC9JrgwrihpLaUxG65/qEcdgjTLE4qy4qczMfuwkDLsJVEsB62KLmGoAS4frRuq5SOdsO0pay5OrRO00SkPsTepDiU7LFkpAjQAsxyxWawSNIAxXzQrLv8tXKn6MUQxA7DTpxquJ53AIZy0MLB6sN6wzSMItLcvbyzLJf+w069TNNisKC4VrmqtjCVLt2qdKCdBsE2qdSzJrxewXTAqDu+tt6NSKIM0+y8jKmGpWi+bokSzXKgUM1exny17MVerEi0KMXSghTA4tVKojql4K50u8a/bqb+xBi3kKmoi0i5hMCOn2aFnLBEqJK7MsBy1cjBpMoymviq0LGssr6/uJnI23zCALIqzFjRjqciXsyAIF3g00rL4oS0kjDCMILYyV6Anr1utuSx3NuWpm6vZNo4q7qEQMDypXjB9LJakua+1oaisCiiyq9krE7J2tr+lZJVgLf6wabJvLNwxWrEbKXa0vajYqrakGxKgKUWwzTRlrxCruyibsFgulCq5LGeuLzQpJW0fQrR7MrMpvy0hpKCugJ9quFWogKSYrwsxVyswpk+2GLBJKW0wUjCQr3QlY7RSqJUfHzFvL80uSQ8Nokqx5yyYKoInaqo4qmMrsjD3HD0xEajXKBervC08rV+wvizuJr4iDi8Hq3OzRil7qWYwLS45rU2oMKHlqwkpbywYKU80VDB1JmQz1DJUrcwyAq9tKkWwUKv8rZipOTHSKV+oiy8rq5Gxpi5+rOosC7FpKOguDxyCJVIxeTMosAi0Ahizqh6qJTRiMdIcmZ2aKlS3lS1yLDezyi8jLQupsKxVr0UiRbC9qWWsrrGUqGOvKqxnL06pbq4iJKGmCSqjsfsqxq0wptOmPqgGp4+wdbFlpeEiyjY8rFumuynbMyqyKi+sJYAm4TDTLjslmTF/rnwxbxVfKSgshbFgLEEhbauWIvgxnydlKBYtN7DhLMwpiy2xqowL+y8lrjooWS/nsuEuNC4EKkQtKSxoreYxTSzBsIwsLDJ3qFSebzErK+EugzTYoL6sljBtpSUldrGwsb8oXygboFKvHysgouywBbENJ0Er2CY+Mrij7hD7MW2sFZ9/Lg60CrFTq/0uVS/aqAm0/SxyLossOyzCIhYxgjDkK7WVprl4KrYrRTB+q2YyOSnusZqm2yziLhs28zKGJ0AsfafQLxusay18rqWp6yc9JIuweaqfqYKtnjNVLUA0Qh7xrHoxbLXcm4C0OSKrnrmqKZ6+rcmdFSCesbIV3RyHtKursiCkEs4uRa22qE4qwya8LwAsXiURLlSylKKNLrMtS7R5KQsuDimurQy0WzD1sN0vPC6WskgtCarpLM6wc7B9Jrey8y1ssk0rQi/XtpOl2ScvKxmvnrBipO2ylbFiLZiosCxrrOgsFa0er7qdzy4VMzepRKyXMjWz5KzkriAyXrBYoyGoDK7OrzkqfzBhN8S1HqzlLceihayArzSo9i7fKDYwDq/+sRMxH63BqLuy6DAxLL2xcySoLxuufDKjMiavGqxctf0niC01qf8xpay/qikx3i2vMIAsZC52sLyoxyzEqj2xjbFiquIxhy2AKhGwzbDwHc6qgjDdNL6sLJ3QqOwobTC9sHmps7MtNWumHyVNNC2oESnvMbitpavQLu0kwS9ZLL6rxIyHLT8rWS1jsHcwUbDDMWmjhaqFLVoolClwryAw7LM+s/8uBbAMssOIuC7VMBKyXavjrAMwv6YkKMKvHKwcsRivhqN1LKkwGaQAsTSxkzSuLCSsQTF4LOOeEC6epkKwnyyUsgsqsbB5HXsuaJxnJr8wg6zRNM6zxy9pLbMiLTSYo0A1AS5xLowwnanhMMmxXKzvsJyyKbSxnjmyNDZxKrcuvrEULD+up6horkE01S0esFExVa1JpActtC0Zr7UtlC6PpReuobNuqZUq3LaSJKOhxqwIMY6zw6IrM08sSbWvsRMs66xYlmCygijsKlezRyZvsbeuAy8tqQoyxShCMh0qLaliMFwnDShdKwqoDbAuq9Atu614Jbyd7KjTLLAybBxYsHMyFKnjMM4sGpN/KB40Ey1op/8ozabKrc4oFarinVqp8yLLKLk2sSkdrVGqNzLFqrgrQTGEMhMwrTFar9YlQ7Igrb0vEay2IwE1kyzRLY0q9C2KMdQxoy1csPIuvy3+KBoe9rJCMtgxuaePsastGS5oI1gl1LAksLcrwavGrAK0JDAdKYsuVbG3rJmzTjFQtdMr1bQvMDWvGycvscuwmS6VsAuu36jfsdkyuLXbLZuq3CWUqHCwrrCdMc4v9y9MMKsvf65hrc0u/CkdtXcp3SRvpWKwDSiSs0KqEbDErdwrzLR7pmK1San7MGgwV7CtLNC0EaWfJ/ypP7LjrzksQSPOKfk2/rFmLfQkRjAnKkYtCTQ1Mi+qGqVcKXqrLTBBKaMzADL7rEUyj6+pMdcowLWCNlW0v6YVqR8xhjRgqTGyerBPskGtzaJhKj2vYy3fsgG0f7SsKLUtBLFfMHYsAalRLA2yE7J7r9qokjX6sYsyzDBysRyxDysQK0ov2jGzMFSrwqEpMeSuk6CbLRc0RiaUsg0sRq24t56tR7NDtQk5/TLfsS20GaW6tPGr2DFELwSw5LW0sPewyyD8oCaj5LLVMXG1SK7tMGstgq25pnuoqDSrIyM0ty6/LKGvurHRJaAj8y8bKXUpOydIsKAz3inOLG0yvyWOHLGu+LFftOyy+S/KLZgz8rGsMZy1bC7OruIrtKzyq+mwKq86Lve2syvVLQeqNx1BtBaxdKTdsDOvMK1Eqj6wyaMuLPcwny66sAks77O/L++oMSQ8raWuBTB2pQix1y+uKs0wci8+rrAxJiyPmZCvYKobNAM0XivSsEqwiDH+qf8uuaegKu0o2K8hsCwy8LHEsQY07LEar4MotLQeM+UkEzd/sjawQrF+NIexujIit2C06awFrZgyhC47McOUIy3iLButwSw8KqMpbjEBtF4wNikmIn+u2bB3KXkygakdIf0qt69nqFCo2qwdK2ooCao/MFqsWjGfrkIseDEsKB8xzTKzqLIyPS4VrU+vNSlIsEQy7qwWq0msQroAs0swRjFqs0IoWqyyLTsr2awlJvIxfa5mqx41PKzvLhQkPbFOr/cuZix0LJq1qCncKDmwwy26pdWtpzRFtA2wYaoBNHCoyrhNKSWspzFzs14tyCjXrfcdKjDeM9Y1kzEsLgoy66udKhssHKUcMpktd7DGKiW2NB1ssUivMTGJKDOuBasZM0UrT6/9MX4wWCoRtEmwta0JqGswYynkMcUwy60kthirTid9pdmxyyqyIj+urjE1rw4vNy99JCsqHTIPsSOzOCVEMVQvjzNHrye0VS0RrcIwlTBjtHQ0Gy4xtAcs9LD+pQyypyy3GIqooKuHtgswTSu8MB8u6ylXKSkizKzPKCCws6vksHi0Uiy0LEcoESsHMgqx8qylKe+nNqk0qQyufC4fI3QxVyg0tC2qxjCGOPG1mDBxseqwZzBgNKswoa46q+ugLjaesFOwBjQOrSqzcDN6NDquurF5snsnvS6ZMfYu+LVHMN0bvTKoND8z0rMKr5etUJmWMAO0jCaULe8yL7LusWWwRLYvsS00xjGNM4UugbTyLLy09C7dMKGokCyipKyoGp63swm0TzJJKB2q+avasW0vSTF5MwEwlKigNBsxwDB7IYSsqCyWqhgqXikzpH4znK2GMPGw96eGMsw0IDRXKr0szKg2K1ktnyW9LSanxiy2n/cqfy4frCKxA7SHLKUkp7JyKqKugbAemeexEa11rHQscRKIMpItiKe9MCig5iRPL3Kwb7JjpUIy4q/Aqr4sqC2JNIgskDaUMYsw/qkRHfg0dzCjqmEvBCp+L4whs6QuMhos3icZNPAxUbMDsnssOTBLLKIxsTMXMTGuTa0qMZYwsDXdMqg0zCkUsWItzDBuKNAyZin/LW0r+61sonspCLNKq7MwQ6NxNEyv1q+KNGIb17V1LH4wNDANNDIxvCujtB0eEq1gpgS1PyuWK/ArU7FoMiIyTDCZpkIsmKwSKkW1Eq0WroapcC9hKcc0Tq0EplUtqDGiod8wYDMLNEc2shnFrvs4oauML7ghSTAxJm2wgpjsrAG0b7ORqkwz3KpLr32vCSDqoIcsCTTHsycpJKA5MCooNDBLscysE60NregjT67vMUomTioetK00LiqesgMpBSdGMPI1r7FksKCjmS2crlIvszDWrxwqn6TjsGQrsDECLX6wvaqenhiwpyxspNKsji0LtkqUWrD0Kr6oO62XpZyvlivpMBMrsC68qGYt36mLHt0oAKqzsQyn96QyLhOjwigfoX60wDGdqaotKC1GtRsuLKUoqFezvCrpMHmuGqvwmjktsq4iMxaxnaCHLbKpHrHdqV2vEjC4rSetxirlIu8cRbM4JqE1Rqn/qI+1kTJgLg+0ni7QpdcoWC6kMsmrGzTNqV80/KzpJm6soS0FNSwrv6m2NWEx7aj5qJcs5DTRLOwv0q2JqncjTa3frVkyNKUjsv2tay3Yq78rpbN8LKqYbLTemOY0I6U7sQuvGCfEMhmvyC8XruSm/jFeLSWxRiTYoN0wESk0qbKhmCloqbAyQaroJIQkviwAuGixaqWnr2Q0KK9Ust60RK0fME0x1aotLyAw3Kr/tD6dQCW4LTmsmKsism2sySf0LNIxxi6Wsrwy+jDYlpwv3DAyJC0sCywopQewgy07LYiwdTGdLZCnk6tZmVMtUDHYNOQmzbHAsdOwgDWurJclAzCulEuYcgloowc2s6B2sJ4tCSVNrn+pBzOXMRCuH62Eqv8ZBa6QrlczDqwSsCQnqKsbqGm0wSjJK3YtAiQeKvewlDFVJsWvcbOkrPq23arOrYepOjCcMhssqijnpwKv6KkhLlQsfCykMR8OSCsArvYpr67pIs2u6yQ+p4ov5ZoarMgvxYKsHc8xG7G5LOuxCjbRrdAwsqJIL22yC6Y+KzEgmag+IX2pTyoOpi+vXKk5sTc0t7AGKvyVarAfsTwqkqQ3qssyVDDNL1MwK7WanuKsIC4rJ4qttKD0LIEq7KSFsiMvwSzZpg6uRC1eNOswCTLkMSuztqPVJ9IsNDV2qIKwUquboIgrFbjfKT+ZNKcgsRum2SUBsx2RhZIfJ86wE6S3MqgvqC+zES+swLZWLEUtorHaJKeykzZXslmstrD4sBsslTEHsIOxVjBWJ6ApBbMWsBCzrzECtA+xei61qkOkWB6mLyI1kTKWNKYw1qzXsNunhivSG+c1qgIoJGSsVq8aMmuvXTEzMnWuoacYsKo0nyAVsEsoaKdeMLcvFLNNtPuvojCAJgetei3AsAsZkKZpqtQqNKnYp4Yk+7H+Lhmogq0bIjEqTq3oMUct7C+/sNenwy7ZniC0sjEAqVMwsiAvLEQsg7IopqKrs6MSsLyxASulL0mkEq4ctuMa8akSr8OcGzT9ms+rnrGIDOavfySfLDcwsi+HJmqmMrGgLSaw5rKBMKSyWp59KyQz7qtjrHiiDLHgLRcrJjJfN9+0+6SsMqQuNK06ocUufCxjrZ2tOyxYm6ulUi7lr+2yKimNJI+rHiw5LNGsZjIYLTOuV6zfpD+sA54ssJ8w8ak3NIgoiKMXKT4sBKxkLb8xkKcjtMIwMK1VLBsujS0qJ9QolCiHtDiwcDLVLIkuw67Sqowoza/7rPmZWSxPMpYwLrPksJ0bNw3/Mayt+7QKrASxPzTtqeSjLTG4LZYu863nsJGtmDKtIuOtRazjLMWa8ah4qC2wDhwiLEaxCDG0qXguqqs6tHurI7AmMcwpzqKBKHmjLy7CLNOrpa1pMDGpRCV4rJ8hRawAMqawwC3ZKxexCjK6M6EqFCAGpgswY7BBqKIqkbEvKgMZTinCMwAvZy3eJFiy/6k5Ksi1GDASL4wk4aFbMPOwozC9ot0n9igptMOoDTQWLE+sUDHlrVGy06QPKOkzYC5GpDEzJC7OKWAvaDAkL2ixd63NsM8VHqxxMoyrb7KHMoayDiykK4ch6q22protHKmpI6Iyi7KdMZgpsyGgoxwwbrM7r2yw3SmWKvsmT7A6MTSlvK5VICWzJrAIrMClXSRPLnyx+KYhrDYqpiI2Il2v8qzvqJozWi5jL28uWiwIqG8xYYhKKUKspCpuJECtfa6HJjaoJrJ4LFU0LC4fMRqoCrP9qM+giCnXsRCwoCZCMAOyQTLxsBIyUahiLIUxkzMIssMmQyofL4IympkBKr6q4Kf7rU8zFjEkLIusDDDapEWuXi4RMEMyA6dksOil9agfr/IZ4quUhZRSlEsASxVNAAOGlE0AA0sBhpSIjAtjb2xsZWN0aW9uc5SMC09yZGVyZWREaWN0lJOUKVKUdJRSlC4="}